module {
  func.func @main(%arg0: !npu.tensor<1x1x8x8 x f32>) -> !npu.tensor<1x5 x f32> {
    %0 = npu.const dense_resource<torch_tensor_5_torch.float32> : tensor<5xf32> : <5 x f32>
    %1 = npu.const dense_resource<torch_tensor_2_torch.float32> : tensor<2xf32> : <2 x f32>
    %2 = npu.const dense<0.000000e+00> : tensor<1xf32> : <1 x f32>
    %3 = npu.const_shape{values = dense<[1, 1, 32]> : tensor<3xindex>} : () -> <3>
    %4 = npu.const_shape{values = dense<[1, 5]> : tensor<2xindex>} : () -> <2>
    %5 = npu.const dense<[[[[-0.0434637964], [-0.259585142], [0.0904722511]], [[0.0643031597], [0.121741802], [-0.12441501]], [[-0.18793647], [-0.0488690436], [0.208099276]]], [[[-0.21367678], [-2.47746706E-4], [0.0575312078]], [[0.299190253], [-0.126253173], [0.0712993443]], [[-0.133504912], [-0.0895605981], [0.0731403827]]]]> : tensor<2x3x3x1xf32> : <2x3x3x1 x f32>
    %6 = npu.const_shape{values = dense<[1, 8, 8, 1]> : tensor<4xindex>} : () -> <4>
    %7 = npu.const dense<"0x809EAE3AD85EEBBD7AE7C6BD1ED3E1BDA7A613BE4DB9F1BDE8D4EDBCF5D11A3E575C0D3E5284A33DBDE82BBE6C093BBD2B05CFBD7E839C3D12BFDBBDD67F22BE58F787BC40FC383DA49C803DB6CCB33D1C60483D7AA7D53D803CA7BC45E3F6BD786FFA3CFE45C73D009253BBDB2716BEAC7D92BD87870CBE3A68E13D4CA0113D5871FE3CB0B108BE219BABBDEBF3AFBD094820BE78CD223DE26BB6BDC81107BEA93528BE3BAA073E58D780BC8219D3BDFE2E1FBE2174243EE0ABE9BBC0F099BC2DF0C1BD986E4EBD244A26BE583129BD01F714BE90FBCF3C9B0A25BEAA2EEABDC5B497BD36D8D8BD2083103DB614C33D8066A83B40C61F3CEF80BABDF2D5F33DBCECE8BDA8B6883CCC45033DD1DD22BE5D73013E6B9D133E67B6AEBD53D9323E746A223D0370333E4887DDBC8D7AF2BD7A3F65BDA85C01BE83F11F3E800209BE27C2CFBD18FBC6BC2031D03C29EE133E5D00043ED201FFBDE8D7603DFC8B293D3C9A0FBE70A581BDE045413DEC25FCBDD4223D3D5E11A73D81A4BFBD60A29E3B5E42ED3D9D2B86BD763D30BE21408CBD9A476FBDC07ACB3BF14231BEFBEDA9BDA16909BEBA33C33D08F7553D743496BD1AC6C63D08710BBE54E6473D6059E03C1CBE323DA0E08A3BB6959E3D4B1BE5BD062CD63D55F30B3E785F98BD202B6C3C04B8933D666F7FBD1591003EC2F5DABD4B3C2C3E004A65BBB08CEB3C43F313BE47D6053E5886CC3C138093BDE668FD3DC49C43BD624531BEF019E4BDE9911FBEE2E300BE4AF1DD3DB5012D3EE7C1163E16300ABED87FE13CFA7022BED44714BE7EB1A83D6896DB3C9AE804BE6F8FFABD3EB6E6BD42EABF3DDE03D83DE2FFB93D902C19BE0228A53DDC57133D2626C8BD2040303C072D19BEDAAF03BEFEDF953D"> : tensor<1x32x5xf32> : <1x32x5 x f32>
    %8 = npu.reshape(%arg0, %6) : <1x1x8x8 x f32>, <4> -> <1x8x8x1 x f32>
    %9 = npu.conv2d(%8, %5, %1) {dilation = [1, 1], pad = [1, 1, 1, 1], stride = [1, 1]} : <1x8x8x1 x f32>, <2x3x3x1 x f32>, <2 x f32> -> <1x8x8x2 x f32>
    %10 = npu.clamp(%9) {max_val = 3.40282347E+38 : f32, min_val = 0.000000e+00 : f32} : (<1x8x8x2 x f32>) -> <1x8x8x2 x f32>
    %11 = npu.maxpool2d(%10) {kernel = [0, 0, 0, 0], pad = [2, 2], stride = [2, 2]} : <1x8x8x2 x f32> -> <1x4x4x2 x f32>
    %12 = npu.transpose(%11) {perms = [0 : i32, 3 : i32, 1 : i32, 2 : i32]} : <1x4x4x2 x f32> -> <1x2x4x4 x f32>
    %13 = npu.reshape(%12, %3) : <1x2x4x4 x f32>, <3> -> <1x1x32 x f32>
    %14 = npu.matmul(%13, %7) : (<1x1x32 x f32>, <1x32x5 x f32>) -> <1x1x5 x f32>
    %15 = npu.reshape(%14, %4) : <1x1x5 x f32>, <2> -> <1x5 x f32>
    %16 = npu.reshape(%0, %4) : <5 x f32>, <2> -> <1x5 x f32>
    %17 = npu.Add(%15, %16) : <1x5 x f32>, <1x5 x f32> -> <1x5 x f32>
    return %17 : !npu.tensor<1x5 x f32>
  }
}

{-#
  dialect_resources: {
    builtin: {
      torch_tensor_5_torch.float32: "0x04000000586E06BE4E7FF03D9DBEB4BDC87CF23C792A043E",
      torch_tensor_2_torch.float32: "0x04000000C0E5FE3B6CEC95BE"
    }
  }
#-}

